const unsigned char model[] = {28,0,0,0,84,70,76,51,20,0,32,0,28,0,24,0,20,0,16,0,12,0,0,0,8,0,4,0,20,0,0,0,28,0,0,0,152,0,0,0,240,0,0,0,72,3,0,0,88,3,0,0,12,9,0,0,3,0,0,0,1,0,0,0,16,0,0,0,0,0,10,0,16,0,12,0,8,0,4,0,10,0,0,0,12,0,0,0,28,0,0,0,60,0,0,0,15,0,0,0,115,101,114,118,105,110,103,95,100,101,102,97,117,108,116,0,1,0,0,0,4,0,0,0,144,255,255,255,10,0,0,0,4,0,0,0,8,0,0,0,111,117,116,112,117,116,95,48,0,0,0,0,1,0,0,0,4,0,0,0,158,252,255,255,4,0,0,0,12,0,0,0,107,101,114,97,115,95,116,101,110,115,111,114,0,0,0,0,2,0,0,0,52,0,0,0,4,0,0,0,220,255,255,255,13,0,0,0,4,0,0,0,19,0,0,0,67,79,78,86,69,82,83,73,79,78,95,77,69,84,65,68,65,84,65,0,8,0,12,0,8,0,4,0,8,0,0,0,12,0,0,0,4,0,0,0,19,0,0,0,109,105,110,95,114,117,110,116,105,109,101,95,118,101,114,115,105,111,110,0,14,0,0,0,84,2,0,0,76,2,0,0,28,2,0,0,140,1,0,0,116,1,0,0,84,1,0,0,36,1,0,0,180,0,0,0,172,0,0,0,164,0,0,0,156,0,0,0,148,0,0,0,116,0,0,0,4,0,0,0,82,253,255,255,4,0,0,0,96,0,0,0,16,0,0,0,0,0,0,0,8,0,14,0,8,0,4,0,8,0,0,0,16,0,0,0,36,0,0,0,0,0,6,0,8,0,4,0,6,0,0,0,4,0,0,0,0,0,0,0,12,0,24,0,20,0,16,0,12,0,4,0,12,0,0,0,159,182,222,49,106,133,3,51,2,0,0,0,2,0,0,0,4,0,0,0,6,0,0,0,50,46,49,57,46,48,0,0,190,253,255,255,4,0,0,0,16,0,0,0,49,46,53,46,48,0,0,0,0,0,0,0,0,0,0,0,212,248,255,255,216,248,255,255,220,248,255,255,224,248,255,255,234,253,255,255,4,0,0,0,96,0,0,0,248,23,30,191,252,17,12,63,228,19,100,190,64,217,2,190,134,111,240,190,90,64,235,190,74,177,32,63,252,123,188,190,2,54,50,191,229,7,30,191,113,146,109,190,191,252,177,62,114,6,239,190,210,55,196,62,47,51,188,62,193,99,18,190,236,3,174,62,6,14,87,62,209,237,55,191,154,57,133,62,18,234,196,62,32,146,76,189,25,24,137,190,144,236,77,190,86,254,255,255,4,0,0,0,32,0,0,0,145,62,3,189,0,0,0,0,134,252,0,189,7,175,251,60,123,25,238,188,71,112,243,188,105,62,243,188,0,0,0,0,130,254,255,255,4,0,0,0,16,0,0,0,83,96,145,187,0,0,0,0,20,107,244,188,243,76,254,60,158,254,255,255,4,0,0,0,8,0,0,0,229,190,245,60,228,190,245,188,178,254,255,255,4,0,0,0,128,0,0,0,247,220,18,191,96,152,216,190,195,196,14,63,100,56,9,190,13,165,172,62,134,164,215,62,112,254,254,188,28,226,42,191,153,240,163,190,133,213,43,191,94,159,171,62,43,184,17,63,45,144,10,191,121,137,184,190,118,34,149,190,82,24,158,62,28,168,143,190,114,66,135,190,154,94,189,190,48,101,35,190,106,124,140,62,41,235,14,63,60,231,235,62,115,233,12,191,110,207,180,62,0,132,239,187,120,44,114,190,230,152,7,63,111,50,11,62,173,145,99,190,180,52,15,189,143,117,8,63,62,255,255,255,4,0,0,0,32,0,0,0,173,188,89,63,32,119,119,63,164,158,90,191,174,60,118,63,191,113,80,63,144,28,103,63,172,163,246,60,54,66,38,63,100,250,255,255,104,250,255,255,15,0,0,0,77,76,73,82,32,67,111,110,118,101,114,116,101,100,46,0,1,0,0,0,20,0,0,0,0,0,14,0,24,0,20,0,16,0,12,0,8,0,4,0,14,0,0,0,20,0,0,0,28,0,0,0,36,1,0,0,40,1,0,0,44,1,0,0,4,0,0,0,109,97,105,110,0,0,0,0,4,0,0,0,204,0,0,0,132,0,0,0,80,0,0,0,20,0,0,0,0,0,14,0,26,0,20,0,16,0,12,0,11,0,4,0,14,0,0,0,28,0,0,0,0,0,0,9,28,0,0,0,32,0,0,0,1,0,0,0,0,0,6,0,8,0,4,0,6,0,0,0,0,0,128,63,1,0,0,0,10,0,0,0,1,0,0,0,9,0,0,0,154,255,255,255,16,0,0,0,0,0,0,8,12,0,0,0,16,0,0,0,44,251,255,255,1,0,0,0,9,0,0,0,3,0,0,0,8,0,0,0,1,0,0,0,3,0,0,0,202,255,255,255,16,0,0,0,0,0,0,8,16,0,0,0,20,0,0,0,186,255,255,255,0,0,0,1,1,0,0,0,8,0,0,0,3,0,0,0,7,0,0,0,2,0,0,0,4,0,0,0,0,0,14,0,22,0,0,0,16,0,12,0,11,0,4,0,14,0,0,0,24,0,0,0,0,0,0,8,24,0,0,0,28,0,0,0,0,0,6,0,8,0,7,0,6,0,0,0,0,0,0,1,1,0,0,0,7,0,0,0,3,0,0,0,0,0,0,0,6,0,0,0,5,0,0,0,1,0,0,0,10,0,0,0,1,0,0,0,0,0,0,0,11,0,0,0,252,3,0,0,164,3,0,0,76,3,0,0,16,3,0,0,180,2,0,0,92,2,0,0,16,2,0,0,124,1,0,0,224,0,0,0,96,0,0,0,4,0,0,0,70,252,255,255,0,0,0,1,20,0,0,0,28,0,0,0,28,0,0,0,11,0,0,0,52,0,0,0,2,0,0,0,255,255,255,255,2,0,0,0,48,252,255,255,27,0,0,0,83,116,97,116,101,102,117,108,80,97,114,116,105,116,105,111,110,101,100,67,97,108,108,95,49,58,48,0,2,0,0,0,1,0,0,0,2,0,0,0,158,252,255,255,0,0,0,1,20,0,0,0,28,0,0,0,28,0,0,0,10,0,0,0,88,0,0,0,2,0,0,0,255,255,255,255,2,0,0,0,136,252,255,255,60,0,0,0,115,101,113,117,101,110,116,105,97,108,95,49,47,100,101,110,115,101,95,50,95,49,47,77,97,116,77,117,108,59,115,101,113,117,101,110,116,105,97,108,95,49,47,100,101,110,115,101,95,50,95,49,47,66,105,97,115,65,100,100,0,0,0,0,2,0,0,0,1,0,0,0,2,0,0,0,26,253,255,255,0,0,0,1,20,0,0,0,28,0,0,0,28,0,0,0,9,0,0,0,116,0,0,0,2,0,0,0,255,255,255,255,4,0,0,0,4,253,255,255,88,0,0,0,115,101,113,117,101,110,116,105,97,108,95,49,47,100,101,110,115,101,95,49,95,50,47,77,97,116,77,117,108,59,115,101,113,117,101,110,116,105,97,108,95,49,47,100,101,110,115,101,95,49,95,50,47,82,101,108,117,59,115,101,113,117,101,110,116,105,97,108,95,49,47,100,101,110,115,101,95,49,95,50,47,66,105,97,115,65,100,100,0,0,0,0,2,0,0,0,1,0,0,0,4,0,0,0,178,253,255,255,0,0,0,1,20,0,0,0,28,0,0,0,28,0,0,0,8,0,0,0,108,0,0,0,2,0,0,0,255,255,255,255,8,0,0,0,156,253,255,255,82,0,0,0,115,101,113,117,101,110,116,105,97,108,95,49,47,100,101,110,115,101,95,49,47,77,97,116,77,117,108,59,115,101,113,117,101,110,116,105,97,108,95,49,47,100,101,110,115,101,95,49,47,82,101,108,117,59,115,101,113,117,101,110,116,105,97,108,95,49,47,100,101,110,115,101,95,49,47,66,105,97,115,65,100,100,0,0,2,0,0,0,1,0,0,0,8,0,0,0,150,254,255,255,0,0,0,1,16,0,0,0,16,0,0,0,7,0,0,0,40,0,0,0,28,254,255,255,27,0,0,0,115,101,113,117,101,110,116,105,97,108,95,49,47,100,101,110,115,101,95,49,47,77,97,116,77,117,108,0,2,0,0,0,8,0,0,0,3,0,0,0,222,254,255,255,0,0,0,1,16,0,0,0,16,0,0,0,6,0,0,0,56,0,0,0,100,254,255,255,43,0,0,0,115,101,113,117,101,110,116,105,97,108,95,49,47,100,101,110,115,101,95,49,47,66,105,97,115,65,100,100,47,82,101,97,100,86,97,114,105,97,98,108,101,79,112,0,1,0,0,0,8,0,0,0,50,255,255,255,0,0,0,1,16,0,0,0,16,0,0,0,5,0,0,0,60,0,0,0,184,254,255,255,45,0,0,0,115,101,113,117,101,110,116,105,97,108,95,49,47,100,101,110,115,101,95,49,95,50,47,66,105,97,115,65,100,100,47,82,101,97,100,86,97,114,105,97,98,108,101,79,112,0,0,0,1,0,0,0,4,0,0,0,138,255,255,255,0,0,0,1,16,0,0,0,16,0,0,0,4,0,0,0,28,0,0,0,16,255,255,255,15,0,0,0,97,114,105,116,104,46,99,111,110,115,116,97,110,116,50,0,1,0,0,0,2,0,0,0,194,255,255,255,0,0,0,1,16,0,0,0,16,0,0,0,3,0,0,0,28,0,0,0,72,255,255,255,15,0,0,0,97,114,105,116,104,46,99,111,110,115,116,97,110,116,49,0,2,0,0,0,4,0,0,0,8,0,0,0,0,0,22,0,24,0,20,0,0,0,16,0,12,0,8,0,0,0,0,0,0,0,7,0,22,0,0,0,0,0,0,1,16,0,0,0,16,0,0,0,2,0,0,0,28,0,0,0,156,255,255,255,14,0,0,0,97,114,105,116,104,46,99,111,110,115,116,97,110,116,0,0,2,0,0,0,2,0,0,0,4,0,0,0,0,0,22,0,28,0,24,0,0,0,20,0,16,0,12,0,0,0,0,0,8,0,7,0,22,0,0,0,0,0,0,1,20,0,0,0,32,0,0,0,32,0,0,0,1,0,0,0,60,0,0,0,2,0,0,0,255,255,255,255,3,0,0,0,4,0,4,0,4,0,0,0,30,0,0,0,115,101,114,118,105,110,103,95,100,101,102,97,117,108,116,95,107,101,114,97,115,95,116,101,110,115,111,114,58,48,0,0,2,0,0,0,1,0,0,0,3,0,0,0,2,0,0,0,32,0,0,0,4,0,0,0,244,255,255,255,25,0,0,0,0,0,0,25,12,0,12,0,11,0,0,0,0,0,4,0,12,0,0,0,9,0,0,0,0,0,0,9};